5100030000
CCC000F030
C1D404C713
1C0F043000
CCC030C343
01F5041C04
1C0CCC3F70
0DCCF33C54
C03001C007
1F5F0C074C
13101C333D
0370CFC070
53000C403C
13110C000C
0C4C0C0C3D
0F100F0C0D
004C033C0C
4C5F50434D
31CF41D000
FD3C170CDC
F130000F30
0CC3303000
1CF300F334
0D0340730D
F1C03004D0
03C4C0143F
00010041C3
0344F300F3
3003C000CF
0C00003300
F0401F4CCC
044F0C41C3
0374FF40C3
F40154D4D1
F0005415D1
0C5350C0CD
1D00003C30
1DC011D430
00D051C400
1C0F30F370
0CF0C4FF03
C1F030C004
310CF33013
35CCD703D0
F1F0C70550
300F410C0C
F13C10CF00
30410C5D34
000F300030
1C0C413335
4C530C333D
C1C340D410
C0C4C0C44F
3CD010030C
7700CC4131
03000C0D3C
3340CCC07C
4F4C1C403D
1FD0CC037D
0C50DD033D
4C1010030D
00C000F30C
F00310C00C
C305310473
03D0C14104
1CC3C00407
3000CC5D30
04CC004010
00C0F000C0
C0C350F3CD
C0D040C0C1
0CD07CC30F
D3300C0430
034FCC0370
5C100C0370
0C000C0030
501301F07D
1F11310330
0C0310034C
1C00C3C340
0100C04300
C0C03C001C
C015101510
3005011413
3C7CF30FF3
F040F01CD0
3770C01100
C00300F4C4
0000443031
301F403C01
4305CC0074
5C0FCC3C30
0C0C10F3C1
300000C00D
5C1301F37D
40C0340004
1C0010F301
4D00C03F43
3130C04D10
0C3F033300
0C0C00034C
300313300C
F431370C04
04F0741100
F7150111D0
0371F30030
000030000C
004C0D030C
0CCF0FC000
3110014013
C107004410
CC0F333300
31F1344CD4
F43534C1C4
410FC33013
00C0040400
CC3000C0C1
1F5F4D034C
13400C033C
03440C040C
03500C5000
C341F00CCF
4F400C000C
0344FF400C
0340FF0C03
4F5030400D
CC000C03CC
0040C0001C
0010C0451C
C000030003
34C10001C3
F435C011C4
304030000C
3001405CC0
FC7014CFC0
13130C304D
17D40C044D
1305F04433
DC151DC07C
C0C45DD10C
F0C01000C0
03530CC33D
C3C041C070
0C0C443C01
5403F00104
1CF0C0F730
FD141CC40C
0F0F000300
DDC0C1F37C
FCF005C304
4000C37C70
4D0CC77C10
C53F447110
C3C00CC47C
30140C1000
C000004000
00070C037D
01C30D0040
00C4030C04
01CC077310
71CF033F00
C1C3540310
C3000C03CC
C41010750C
C714404510
F0000C1100
F4010011C3
3435C01DC3
C300010000
70CC5540C0
314F40FD01
0F571CC73D
1F130DF77C
C300FCC43C
40500D333C
C0D40CC33D
30001D0C3C
000010730D
0CC043034C
000F500001
00000F0330
0030F34C34
401C003C30
CCF0000031
10030D3371
54D0310440
0DC310F301
1D00000F40
31F0C00C03
C41F00000C
F13F173F1C
3D3C0C0FCC
C7C0300404
04C03000C4
130F073301
03C441150C
D3C0010403
00D00C0700
30C0414CD0
CC70007000
401D334007
0300011100
1C0C310731
73403C04CC
030041000C
C0C4F30333
3F50CF4C33
5000307C00
01C0310700
40C1000533
040CF04D03
703CF300F7
1CCFCC3C30
C1C050C0C5
13D341C470
1FC00F003C
000F50030C
4033CF0F0C
CC0FDFCF3C
00337400C5
0130177000
341C1341DD
03003CD40C
0300C00003
33C5001100
C3070C1003
C104550010
F1F0C0431C
3000000C03
35CC004010
043F30F1C5
01CF0000C0
01C34104C0
030370F43C
3530070010
00C0040010
04C404C110
4001FC0C33
0300FDCC30
0F10CDC030
0013F3007C
07D4CC413C
47103C400C
0C000C030C
F00303330C
00030D0401
0001C30C03
34000300C0
F4C504151F
3040030DC0
3430111DC1
F0311CDCC0
C04F0303FC
0C43DCC30C
FD33D3C31C
C000110340
34C0530014
35F05441D0
0305F00041
4300F00C75
03C03C0D30
0030033040
01CC174110
740044C0D0
0C343C0000
0141300C07
034F31C000
F370F31033
00433C4C30
5C5F3C7030

