00040CC40003003
54155DD44150113
440440004150003
00010000000001C
FCF003330F007F0
0003044C0001310
000403400000400
300DF3000011000
04C400000100001
51115D15D575157
011100430031011
001001FCC030FC0
CC43CFC3D330F0C
3F7DF333DF0DF3C
1101C040C7C0C51
0F00C4010C030F0
37C4010031C34F0
041401035544010
1C4C0C041341040
30340F001F0CC33
0410000010007C0
00C00300000C000
151551003547050
443D4F1410C1044
000000004000003
000001C00000113
005011054000040
104140D500C1107
50C444017403400
0CC0F50071C000C
D1005C10C030CC3
404C00041040540
0000040403C0404
000C071003C1400
3FCF377C7FDC7FD
110117004010504
410070415001100
30C03C3FC000F0C
3C3CF37FCF1D030
C0C1004300CC541
10100CC00040C41
0F4CC3000000030
37C7C13C0CC33FC
C000D133C070000
00000DC0C075C03
7340047C40077FC
F3C3C03FC0033FD
0000C404C004C01
1C0050041040000
303400404CCD4F1
0440100C4410001
0003147FC00030D
C043C13F157430D
CC4DC057D000145
004044400F01005
01C003404010405
330C307C0CC330C
1D1D0114C404C14
004000110041400
40C330404010400
00C000003000001
000301700014430
0307417C41137CD
D1C0D507C077040
00411DD0D075C00
00401C04C044100
4C3C330503C0104
4003441170D34C0
C0D454C53544013
00100DC04100003
00005CC01100000
000400011100400
501400011540000
0C4C0000D301144
3F33033D4F1C0FF
7344103D1C473FD
FC3FC13FC3373FD
CC70C4440C00131
D04000400010441
001404400000401
100001040004144
40001C154C10530
0407000C5100403
15D001000504C40
50511DC0D575C07
044040D4D043C03
55054CD15011157
04144FC00140013
00F173000F0C300
3CF003030F0000C
CC433303000C144
043734003CDC4C3
C4D7503F45733DC
C044C003D030C0D
10440CC0C341C00
05104DC0D530C10
1C4C10041340340
0C0C0743C3CD0C4
00D104503010400
001C01000507040
303D043150434CC
FF3FC0303FCC0CC
3F0317030CC303C
3F03F37C3F1C3F1
343454430CDC030
3003034C000F7D3
C4D0F07FC0333CD
1D1000140175054
5D4C40000300510
0C0000310000010
00FFF0333CCC000
041411110514107
04004000D400F00
000D0C40C300C01
51000CC4C030C04
04000CC00000103
00000F104300134
44CC401130CF007
44D441C13103403
00000DC00134003
3F3C073D4C133FC
F3C3C53FC1373CC
C044D103D504150
100003000340000
400510410000003
000004010000C00
00001C004000003
000103C30001003
04C04CC00000003
05101DC0D574D57
404004050004033
114411404100501
337FF74C0FCC4FD
3FF3C73F3FCF3FC
F0F0043F0F1C4FD
7340047D50137FD
CC14D5330514450
FF7F37704FDF4FD
C0CCC477F0034C5
004454001350040
11140C14C401154
414540154011544
40004001731000F
04400300000C030
000000000104001
7F3DC77D4F134F4
F4C0C10F31C73CC
0415D5404040000
00400040000000C
04041050101C044
000000C00000300
007CD440001C410
370434303DD3300
D1D01514F507054
00000CC00004000
4041144D10474C0
CC0CD4700304001
000000404000130
4CCC344173D1404
30C0347040DC401
C0000C000000100
0C7C030503CC130
F3F3343C33C73FC
C404C130C404010
000401040115105
15155DD4C531D54
414D43555F1D154
00CC040000C0400
040404000D00000
011101000104004
034104150013100
000300000044000
040415001000000
0C4030015300000
3333034C4FDF7FD
11C10C050401154
44304301001C000
04110003C400013
0034030F03313FC
00111003D130010
155551151541155
0D7D43150C01147
400000550010100
440444514010400
001404034104400
003003304CD4170
041411C14117003
145401000170010
000C03001300011
004010C00040000
30D3F4307CC0401
0307003C414000C
C307043C150734D
CC4CC033DC00C15
04010C45D040C50
0100047C000030C
F00CC47FC30030D
FCFCF03FCF00FF1
CF7CF773D300FFD
15000010C000C04
004004305013701
0034C4403010400
3707053C11137CC
C100D147C030D41
00755CD0D040003
14140C00C404C00
0C001C0FD340F1C
0C4DC014C311D74
000C00017013001
010C300000C0004
00CC30000004C3C
3F4C00400FC0000
3300004C3CCF3F0
001405F43130400
0000C0040104410
0C0000000010001
003C40117F1C503
07C7053F41477CF
C044C533D000000
007051001C1C030
10000CDCC030CD3
01000D001441040
010000404000101
4C70000104C0000
FFFFF77D3FDC7FD
4C4104515050401
00FC301C3FC30F0
CD0C10000000004
444404000C10000
344414400010430
440300FD0104F0C
CC4CC030130000C
FF73F43F0FC37FD
D011D517C434C50
44007CC500C1000
4045547C5154001
0000C33F0301740
FF3CF77FCFCC7FD
FFFFF47FCF0C3FD
001557470400441
040014010010014
0C4C04445400501
0C4C04540004031
0D0C03404F1D401
33F337707FDC7FD
0F00C4357F10530
44C4451571D0507
04C440C10140400
004410C00440010
03371040000D000
034000C40033C03
014100040101157
400447014C0C403
01C0010034C3007
00440CC00030000
04C01CD00044D41
037F3C031F30C30
000D00003034D05
500F11151044C04
103001C4C000100
44405DCCD077FCC
0C441C001114000
3373377C1CDC3F0
C0C0C00FC333000
00000000C300000
000007404C10710
04C544000100000
511D1DD41545D54
40414F11531D044
40041040401C440
1510401405C1150
551550155555154
151551140554154
55D151550504154
001C01010034003
151041141501154
555550111551150
551550550501154
551541150504117
111C3101C434014
0504047000007CC
C01CC03FC740301
0D0DC0140331005
00CC04414000400
051100140404054
400001544000147
40010315301C437
00C033007CC0733
04C4000C3107303
040415405014503
040040005000400
041514000531004
03000C0FD04DFCC
007CF33F1F0C3FD
04001C40D0FF010
434150C00040440
0000110FC034F01
0D001CC3C075D00
737C3F0C1F1D3F0
00D0034303CF011

