FFCFD7073CDD5F4
C333C5540110100
001040000000CC1
10003C0413F31C0
403C4CFC4333403
FF1000D30F3F001
3043CC7D1334C4F
FF444FFF0F3441F
143CC0110010D01
45033D05137FC00
04533D000340043
C0404C704031747
00000410010D114
04030141D440101
001300100000004
FC755F330C04453
010F4C0D4333003
C30030400C0C510
000731310377F43
FC45433F0C05713
C0CC0400100C0D4
50041C3FF3C03CF
07C333000C0D014
0334D13441D4343
F50000050401303
400005573C50047
14030004C0050DC
545C1041C400103
3FC4C3137C01507
F3FCC3004DDD004
410550F04100300
70CC30C4703CC35
1310C05C1DCC111
5504103154000C0
700511044101430
7DF1D0D47151075
155540000000450
CC1153133CD5413
000151004011410
00C4C4500041045
3CF7CFFF7410773
03FCC0D1700D330
33C0C1374D01744
33F0F4517F0C074
C337C4530CC0101
C4401044D040000
40001C0D10C31FD
3144300313705D1
11504101143711C
51554CCCC43745F
00001054000101C
004450000154410
0043D010C10FDCD
1D504D3CD3440DF
104010C10304330
3C0003037011C30
00034C34C304F0F
0C04100CFD10340
D30F0010D10C5DC
511F0150C01CD00
15104131C441450
45040C0C4115510
014541050741350
551114047514F34
01034DF1033330F
FF143FDF3FC04C0
0443CC301F7704F
FC0543FF034471F
0FC5C7531DD01C1
14400131D5401DD
41C110DC0000D01
31F40C000344401
D01DC40400CD0D4
40041D3C0000003
C713300007701C4
3300D00071D5703
415141C4047434F
0C1140173C04455
00C3D4504DD0115
D70011411014110
CFC1C4140C0C1F1
404301000C00003
030FF7500D1DC05
C70011310107443
00040CF00150333
40CC00C57DC1304
F3CCD4040D00033
D30FC4543101D44
410401001444040
040041150440045
0033D4504110115
C7445D401047550
003400107110030
3C0000104040005
33CCC3033DDC511
03C000400C01550
4F3410534113005
D0055D144154401
0403035F11C011D
F0443051DF3F550
00D00444C041030
1C0300040115074
141D441004C00C0
151C0051C5CFDC0
C305D0440101004
400015050111104
14105001010101D
40133150303DD40
141000000000417
4C01130370D1000
410104C44441430
55DF04550511CF5
41444000C04444F
FC0153130CC0410
41351CC4415700C
51103414107C105
514140050407F01
CC1143030CC4400
0000D75001D1101
0470055000C0100
0403000CC143C1D
554C3D3D077FC0C
014441F4071433F
3C3033C37C043F4
50444D0D1447C50
51554FCC04C4710
303314400004450
710034140144155
10DC000040D0004
540301311743C40
D40F0044C400044
04441D71040041F
051C40050001400
10040003C014443
155001050441013
0015140075D5300
000D00000C0C5C1
501400CFC0C00CC
C3D007143C1C0C5
C7F0D1000510F00
403CC0044004C30
C0030105504C030
131C071C01D0145
070400704000513
CF0CD713CDDD5D1
1F04030300D0400
15D074001401004
30C1C00471D1F34
010000100040000
CC41431F0FC4717
051510C04001104
D0C0C41471C1C05
0315C4014011415
550015454551D75
0000041401101C5
141015451450110
F3DCC7003C0D444
F3FCD45731D1574
11117CC00330C0C
5C107000007CF3D
41D3D40C4440034
140DC4155041304
1045D1315044773
C00537007CCD747
0703DF0C0004C71
4533F131054CD0C
30303C04C03070F
3C50003F7C41343
043700054004030
C44005450041001
C70F004000C0011
135F7050C0FF114
11134CFD044C74F
100C3704340C034
7D31C4F77010337
40CC07C44141C35
07C0F40001C1175
443FC5455440000
0D4550C00000F00
110030000430D01
40070C0C00C0040
050CCC010040C3D
01055034C700743
4C1044173C40001
55544C01D44734C
01154C0FF430010
0103400010000D0
141311400110DD0
04107CF0C00C30C
5D003CCCF7FC300
3C30C0C77040337
4C30D40441150F4
10330050C000DD0
0C11433C0000330
51054DF5170034F
7CC103133DCD3F4
050400057001444
440014550511141
000040500033155
14445D711454550
3CCFC45403C00F1
D00C35045C40C30
03DCCF1C40C0030
C3010030030F40F
051C04340001747
4500C5547551044
000004044030054
141010714114713
3CF3CFFF3000347
03FCC0C54000035
0CCDD7303C0D744
3FCDF4047F7DC04
004000030005504
F3F017140D00505
14541D00C377D4F
0000700FC330450
51D370F0C74074F
1CCD430F3400145
3C3000F74040330
104C44C50444CF1
00314C300347043
0C0400CF0105010
C7530D41D34105F
1357415CF00045F
0330105040CC0C5
C40D0011134C400
4001000C500707C
3CF1F3D33FFC001
044470310037143
440130010000140
71055C01001040C
011C43100001111
0C41004F000411C
C010004CD4045D0
3C415C03F0C4C0D
31743C10D073001
000CC0005000000
450400004440C30
07147C310333753
000003F33041343

