4C7311C50D
0CCC11C700
00FC01C413
C30F0CC0C0
C0CC30C0C0
C03C0D04CC
C0CC0CC0DC
F00031C4DC
F0000C0CC0
0CCD03C0C0
000F4CC300
10C0001410
0CC4C00C44
1334C77D31
0030C73C00
7CCDF3FFCC
3331C33DFC
3030130C3C
7C0000C0C0
7DC340D0C3
10CF010347
C000004D45
0000040030
0000003000
7000000CFC
31C010C3CF
0CCF0113C0
C003700300
C000304100
0C50000101
0F00000004
C730FF3C30
0D000C000C
CCC30C0013
0CC7334003
00C4040100
CC11000000
0300000D00
1335C07C74
03F5F33C70
5310530170
03004C0030
073D500030
37004003F0
C70D001333
F70030133F
34310003F3
3341330C33
1047500005
00331400C0
30C000C303
0DC040D700
D0CC000054
CC00300340
13F0C33373
34FC3C333F
34FDCF0FCF
30CC3FF3CF
C000F0C0CC
C0CF0000C0
C013010000
CCD30004C0
00D3000000
4D11701005
1350510440
0353000000
0740400400
03300D0031
07F0003333
33FD30333F
30FDF37F3F
300DF30C33
3030C77C01
3C0000001C
3C0300000D
0D531CD011
1C501C1000
000000C000
C3000CC300
00500CC00C
F30DC00C0C
03C1F30C0C
C00030FC30
0C0030C100
4D0403010C
4CC30F0003
01C3000010
4103751013
F701F330F3
30300033F0
3013000CC0
4D001C1C00
0110000003
010335D000
1000300001
1C00140100
5140000C05
0D40040140
0D035C000D
105010C1C4
0F4C1C0031
0F1C0DC03C
30031CF000
330C0DC0CD
1354500175
00405C0004
1300000333
0330000F37
00FCF30333
30F1FFF3FF
70CC300F0F
000D330003
C007051104
0000000004
CC03000C15
1053D73130
3035D33330
30FD330F03
0CCD3CC33F
30CD3FC3C3
30030CC3CC
00104CDCCC
1C00000000
0CC0040000
0C00040104
CC03000C05
1C07C04C04
53C4C37D70
C00030C0C0
CCC0400000
00C0000000
1C03300C14
0F34C04045
0304F77D35
7044070DCC
41C10FC3CF
C703514101
0303110000
070F1D003D
37CC4C33CF
F33C30333F
340C0C333F
F40C00300F
C740C04000
34F0CFF3CC
3000F330CC
00000C00C0
3C0001C3CC
C00000001C
0CC0400300
40D0001000
7CD04010D0
07000DC3FD
370C1C00FD
37000C30FD
37000C00CC
F73C0D03CC
F73C3C03FF
F40C0C03CC
F4017C00C1
3C43004000
3000004D00
3C1000410C
0D5303111D
3C001C10CC
0C1043DC00
1C501C0C00
0000100C01
D003340304
1C00C44070
0035C77D30
3000C43D0C
3C0C0FCCCC
0C4C1CC104
004300C101
40331DC440
0430033000
300300C00D
F00300C010
0C440005D1
5C00110010
5034004043
10F4C03D34
3430C33C30
0300C03303
030CC30F30
0330C33C30
0C40C33C30
7D40D30C00
4D04130005
1D100F0500
0C134D110D
C7F1F73C30
C300C33C33
30C0033CDC
4D100CD101
4CD3010403
0CC3001703
C0C0001000
0003444104
DC40010004
0010400401
115F5CC101
CF570DC401
0C001CC4F1
030F1C0CF0
033CD03030
F7300FF0FC
0F4403303C
3003C00000
3C171C30C0
00001000CF
00CF041313
0D03011010
1030F44074
0330F03C70
03F0330003
0C00F00330
0100040040
0300F30C70
0075C33D31
7000D33131
4CC31FC410
0D13411410
3F30000C0C
3C3403C0C0
0C000303C0
0D13011003
1000400000
D004000005
0040030D00
1300D37074
C003710001
C300000000
0040004105
5075043040
40F0D73C33
3030F00F0F
00C13CC3CF
0CCC3CC70C

