4070031000
013000F00C
DD3100C43C
74C103404F
C0F40F1FF4
043300DFC0
FD44F41F71
0C77F4C7F1
DD7010C04C
0470DDD4CC
137CCCF5C0
C001C031FF
00FC470F30
510F11F00C
007010D0C0
FCC5F31C00
3C00030F35
440F0000C3
54005FF00F
00CC0CF41F
0CCF033043
D1C11D1300
D031F1C3C4
C30FF10FF7
47405CD0F7
330D003CC3
CF1DC3C1CC
10305CC5CC
47301FC03F
3730000C00
000030304C
4000344F70
3C40303F41
0C4030CFF0
0D0374C0C5
400F3433C1
F0C1DCC0D0
0374CCC1CC
C33CD0F4CF
0070100017
50335C011C
4400404103
3C4FF00F34
0D40303F00
0C03344C70
000C000003
00C30C0433
0400C30000
C30000300C
0CFC0C00F0
030333000C
000C000030
0000000030
C0000C0030
00CFCF000F
0030000300
10000C04C3
40DF333D4F
74CC4C0C0F
70DC733F7C
03CC007013
50CC10711F
07C1100010
47000300C3
7303474001
74C3434370
03CC437C43
70DF70704F
30D033704F
03F4C00CD1
40C3713014
44100C0000
CC4FF131C4
CC1CC47CC0
CCC4C51005
CC10013004
C00500C330
0C04341C05
C330C105C3
FF00CF1300
C003343F35
3004330F7C
4434D04000
0003CCC403
40C34F010C
01C00CC34F
DD30C1F030
D0C510411F
10350C0017
C3310C10C4
103C10043C
D0411F1003
0031131003
C071C0C330
D370C01300
10301DD30F
CC7CD0C7F0
1D7D1CC4FF
50711CD4C3
00004C401C
01303C000C
001003C031
31DC0F704F
00440C1F01
FC03F40F05
3014F31F30
3C53F0CFC5
3DC7344FC1
FF10F50CC4
FC04F51F01
FF03F00CC4
FF04C40CC0
3335F000C1
CF000470C7
F000C0C1C4
F070D3C101
04051101D3
CC43350C04
FD03040300
CD30F50031
CF01C00C00
FC35C00000
FC34F4CC01
C371CCC5C0
0331D30103
003113D510
3377301CC5
3F00F33003
FFCCCF70CF
0070047104
43D50F351C
43005C3513
0003F501C4
7103300F51
040F750F10
FC03F43303
0D33350340
014331C330
FF41000057
3C05031D00
3C0F400000
C074D0C0D4
1435DC0510
173110C51C
00D0FC10C1
F377F000C4
FC13F33F43
C147310F01
CC00F400C0
CFC1C0000F
C07704F0F1
13051C35C0
00041001C0
DF71C30030
03311F5003
44F4030013
CF70F5C0F0
0070100333
44F0500043
1033D0C4FC
547C1CC40C
000CDC0433
0CD4300C3D
CF00CD30C4
330CD3011C
3DC004C031
0070F503F1
C0440310F0
0CC000C00D
507F11F4FC
550D5CD5FF
07C00F50D0
03FC1CC11F
F0CCCCF11F
304043130C
04310CCC10
D030CDF0C0
410000003F
000D0F1033
F03400CF34
43444010C4
3447035004
FC4D077C73
CF43003C04
0FD10F4C4C
03C11F011F
CF40C103F4
C344F0CFF0
D0011000CD
FF0F313100
CC1F000D10
DC31D0C1C1
0C40C5C034
CC40F410C1
0034000301
C030D0C5C3
DC001FC4F0
553053C50D
0C310F530C
04311F1003
740040C313
0073001F0C
00301CC71F
11CC01000F
1D3010C4FC
10F11DD703
F030F1CC07
3CD4304F1D
FF44C0C0C4
FF00F300C7
FC37C0CFF5
CF70F030F4
C3C1C04C0C
3C3704C0F1
5401D1F0CC
04451CD0C0
C30CC030C3
0310C03110
00D4071105
001C00300F
44CC4F3103
70D0737C47
00DC31400F
04C3057C1C
07C0CC711C
FC00F53033
CD03F4037C
CC41C405DC
0301100017
C031C000F0
047740C3F5
F031C00F31
CC7734C3F1
514F1FF040
C330CC10CC
0735DF10C3
07F00CC0C0
107700F3F1
503C4C3403
04CF4C3047
100F0D347C
44CF0C314F
0F0F0D3C0F
1F43FC4737
0010034F0F
33C4034331
3C000C3100
001F003013
4DDF41F07F
0405104D54
15C4510110
DCC0C1C510
F330C000CC
00D4C1C00C
0001130405
000000030F
44DC00311F
74DF434F03
07CF73300F
00C0057110
00DC0C715F
4044740F71
4170530770
750F40037C
010C5F345F
CD0001344C
C101F01070
C3311C1113
CF35FC0C04
0F7C30CF00

