CFCC14DC
C00D40D4
0C400C03
00330001
C01C7005
C1503077
0F0044CC
FF107110
314C3C44
744C4307
35700050
F0337000
3501C343
01047050
10C40CC0
1115F044
00C7300D
4FC3F0FC
4FFCD0C0
00FCC10C
3FFFF401
4C01DF30
4C40DC31
3030C540
40D50C01
40530400
754C1540
00037501
1C400501
1105F5C1
030CD50C
0030D5CC
030300C0
40100C07
34404FC0
3400FF34
0FCC0007
300340CC
34CF73D0
4101CC00
000FC303
0CFC0010
0001C047
4170D444
304D1044
00144F0C
03D54C0C
000470F0
F4334553
F0331450
C0011003
C37FD550
F07CD544
1001D544
00304441
07003103
055D4100
0000C10C
54111C03
51110FC0
4011100F
55C13FC0
1405300C
C00F0401
00000411
1CC0F001
443CD5C1
50C0D03C
4FC0DFF0
10D33CFC
00D04C37
40100005
443C1000
3000D01C
37C3C4CF
04700100
35400143
F4070410
C0507D03
F5747353
00C74313
4037F054
C1337000
0C103004
44041310
00C34C0F
40504100
15C47C01
F3CF70CF
3F5C4404
50D00C00
10C00000
00C03C0C
00D00400
0C300500
300C1050
0035104D
1071D510
1071D501
04000403
C3105400
035C5400
0033F501
4330C501
10F005D1
F43C000C
44F0D000
4FC0DC3F
1405400C
00005100
47CC135C
04C00000
D0C0030C
50115C37
0104D007
511DDF00
5D151FC5
5F03C0CD
5FC0D0CC
00501000
531C57F0
40114CC4
14413004
401130C3
F4117304
C003F074
FF03703C
00400404
01013F34
33FF350D
0C3C150D
1CC3C031
743C1450
44FCD1CC
33C0CCC3
40007003
11041C03
10C40C01
F1544FC3
00147F03
0007400D
F4007053
C0375043
F000141C
40057030
C0740510
01700144
333040CC
C00C7400
007C4554
43C0130C
33CC001F
03010505
03C3C0C0
4CDCDF4C
4FCC135F
4C01DF34
5C011030
1340D404
00303531
1033F401
503035C5
C400114C
30001000
C4F44510
C5377540
F4330550
30401450
C034015F
00700010
10740101
33104F40
04D01007
30111F03
0003310C
10001400
11010501
30F3050C
033305CC
13C7C5FD

