10DFD7F1F03514C
04D000103071155
5410100503051C3
405004C45754001
C10410000000033
015000010400000
4F7FC3CF0710051
3C37DC1107C7141
00C000003000000
000000C0000C300
00C3001010C003F
003000000004100
0100014C0D300C0
10DCC34FF0C0500
030C00100C40010
3330D300F400310
101010144005070
14D450150404000
14100430C355153
030401150400D45
551D35313445145
00D0C40CF441555
04101004515004C
440051051054004
01314D405143010
413451445110300
010534050104104
071001000100004
571FF7F13755045
105005110000155
3411504440103CC
5005440401110D0
C00D000000C301C
3F7034FC0070034
C50401110C334C7
5C5F4FF7431130C
44004D554C0C0D4
515440445C3503F
0D4115400D30000
111C07403104140
150F00000100000
55D100014C35140
D50114470D0C0C3
10D007314C05003
410030110410155
C34041D14050104
0C47101050D0C05
11575D5550D0130
000470001000014
3C34411C015F0DD
4303000C0450045
3D31D01CF473051
014D107100000CD
54D0C40D3035154
0044411051D3100
0117410451D0033
03CF03F0F340444
C1050040C013310
140000007C440F3
40CDC7C0044C310
C074104100C30DD
40CC34CF0030000
54D0C0111701050
33770DD00713301
5010C43CC441140
3F3004CCF44F015
00404C40541000D
F4041D105013000
FD304C1015CF01C
0405040041000F4
110401510DFF1F7
0D5F3333404100C
400C04333D700F5
30307007104F410
3D7151707D3F3F1
110100400D30003
000501511100051
111104410D40100
470531000545044
4F7113030450351
0001414340400F0
05D11143000401C
500C7470005100D
37C5040CF130314
07DFC7F4F375074
33307517003F310
110154400C0000F
1001C7514171104
031014C40004040
337411145413014
0003103C0714050
0044011113F3135
0FD3C33C0304440
10F040030007000
17D403040C413FF
4701F7F3034D3D0
440300C44070403
44077C171000733
400CD43330F0011
C14101440DF0134
04400C141410301
D0034D0010110F1
D414405150000FF
D5D0410440150C3
C1444D5510DFD10
101CC341C335D70
00C110110C01107
034370F757503C0
40000C434001053
110041744010D3F
40CDC01C0000003
510C04333004100
441C033C07450F4
00041011C750450
30404C37505F30C
C4D11150CD033C3
010003301410004
5110D0010305140
0070500051033CC
0001404451103CC
3C31514301C30FC
5001D403104701C
1003303CC401144
F301C40DF103C04
4501514041000C0
4C41703F0051014
15C1F3053D75100
470300C00045344
31754140110F0C0
511DC770FC35140
00454D501100000
00004000401031C
00C3F3C1C330047
C44F34C13330100
3F7F0CDF030334D
3C43000414C0041
C4433CC55410C04
F1474D0050DF3FC
430313F00714C1C
010700001717030
F4040D1104DC3C0
15145C451CD503F
044000010050000
04DD0400F000010
00DC17F43F340F3
0333C0C74030000
0C0D05300DC313C
C40431155DF11F7
0C030C00571005C
000450C10411030
C05401151C030C7
D5104104401C1CF
7C300540000C1C5
FC3D343F014C005
3D7441541D3F0F5
111D0F40411134C
0003400F0411C00
1110D10DC3C4440
171F33F407553DC
07F411D11753300
F3070C0300CF40C
44D410511C043FF
D034300C0C3C0F7
1CCD377FFC3C010
44004C0351100C4
115451445C55031
550155440D740F3
54CD44004140C03
33000FC303000FD
0C401DCC13D00F0
F04303C704403FC
30C700000013C3F
F3031C1050DC30C
14041015000400C
C0447100101C0C0
C0C0074C0C40FC3
3C01043CCD00031
00FC300CF503010
071330000740410
7334D1CCC453300
0010510000417CD
51D114000074010
150170033D40DC0
C4C50051F14CC07
400000010C01004
00040110413C010
3C70040034C0041
C104C15101F0171
FC3441035D0F0C1
333C300F040F400
4C03F3FC3701054
FF73DD0CC33F071
551D04303C71034
000C3403F43F150
7C7C00370041301
7431D05DCC35354
11001005FD0003C
51DCC33DF035140
431F13C00704010
3F70C0C00303341
014400104C10014
F3744014501C3C0
0D0000001400001
D1175D510CC4130
FC301C1000DF030
441110550C040FC
C0040C4C0CFF0C3
1D0D373C3C3C0C3
541D34310074141
03407407015C045
5000D4314075154
7440C0C04441045
43DCC3FCF004040
F33040D3001F311
140D0F403C703C3
43CC033FF740F10
30040040000F000
04D013400D070CC
3C717C0071CF0C5
70CDC34F3D00313
17DFD7F10375040
470335D00430C05
CC50140000C000C
1104401550F4130
00001000007100C
734030C05000000
0D04141C10C0140
DD577D1550C0131
0041515741100C1
4101100F41150C0
151135450144104
14C140100141304
34034C10103C0C3
FC704C404CCFCFC
0C0FC3FCF371054
0D03C0C033C0170
100430C00300043
11110001C034040
070003C30354311
7030D00CC403010

