740DD134
33C00DF4
001CC0F0
00004154
C010C1C3
00050C00
C0000150
C0000C10
31144003
50744701
045710F1
C4C41DF5
00000440
14530175
C4170C34
30013104
4C01F40C
0C03340F
001CF003
4F0FC000
700DC000
700000C0
54441030
40011333
D7470C31
D4031C3D
D7431F3D
0031FC00
3DC137F0
0D40374F
0C40D000
7DC034CF
CC330743
30CC0110
30D3F443
00D5F044
C4DCCD00
35101000
0170430C
C71CDDC5
17410C35
534C104C
000000F0
0031D030
3CF110CC
3350C000
311031C4
F1D70013
41000704
0CF3445C
CC33070C
1C701341
137F131D
DF3F0310
000000D4
04005040
130F075C
17101CF5
5341D00C
0F30031C
433CDCFC
4C3110FC
0CFC01FC
C300003C
0000000C
0104300C
C3C0C1C4
0403C110
351401C0
34FC01F1
C70F31C5
D753DD05
44101034
147C033D
5330C00D
033C0C00
4C31C30F
4D34070C
01CCC31F
011C07DC
10405741
40017011
4301C304
40FDC5C7
44050335
44441131
5044C131
13470041
0410DCF0
04030400
000C0C00
CCC30010
0CF0CC1F
40300370
4FF00000
0300C1D4
4C310000
41010034
71D55104
430C11F0
070CCC34
0700C1F7
4D70070F
51001004
410510F1
4130771F
300747CD
C0070004
C407134D
D0101C11
17515051
C0D01C00
04004C01
034CD13C
C0C0004F
C4C03003
FF1CCDC0
41045404
10504014
070F0050
10005011
000F471C
0C3CC31C
130C1F0C
C33FCF0C
0C3C03CF
C710DD04
303DCC0C
451510C0
C33CC000
030C00CC
51107003
C001CCDC
710070C1
11054444
3003CCFF
0C0C0030
3DC47CF0
040CCD37
000F0C3C
30004CCC
34000105
C30CC101
F0D70DFF
0CC10450
1C0F0450
1C1FC711
34143D05
0011F037
404CC400
14140135
04140DF4
53751434
F0D3F104
3010001C
40045330
C3101DC1
04001D04
134C1740
040CD0F4
134DD031
4F3CD3CC
D41713FD
C1104104
3FD07140
401033F0
3DD4771F
CF004353
7CC03700
010F775F
F3CD0C54
C0130DC0
C0130CC0
3D147443
1300D0F4
C4D33000
F1D77133
107C0704
0403FC00
F1D773C0

