00331100
0300000C
00000110
00000141
00000103
07400103
01400100
0000C500
40000103
45000104
10001440
10100041
1300004C
D0040301
C004004C
00400000
03030043
00400100
407C3133
7F414CF7
41C0C003
4001F000
310CF0C0
00F000C0
00C00000
04000301
03104001
0304404D
13044040
13105010
13035451
D303105D
00044001
03004000
00004000
00414003
0C410000
33000C03
0C713C03
307CCF33
D300400D
0000500C
03030010
0F00C1CC
30000100
0040F100
00013100
70410103
010C01D4
71C1C104
704010C1
40000000
00003000
0000000C
03000001
03000000
33001010
03C310DC
C3C300DC
DFC05311
01C03040
00000300
0C333C0C
0D00C000
0004C310
14070410
00041450
14041010
10001011
10035451
C70F4340
D700030C
03030000
03000300
00004303
03000CC0
00707F00
737C4303
30400CF0
0C403003
00001000
3F070030
0307C00D
03C0300C
13C00310
0300F011
13C40000
03C30310
03F00000
CFF34010
C30443C0
0300430C
030340CC
030040C3
704C73F3
03403303
40440030
00404000
40404400
05410340
00000144
000101C3
30000100
51010100
30000100
00010100
0000010C
C0100103
03000100
00070130
1C044010
1C105CC0
00444D10
00400000
00C00000
00C00010
10D41010
41D50050
0114D000
10C4D010
4000C700
00000300
11F00340
00010700
00000300
00010300
40000350
100C3300
403C3300
413D0304
0303045C
1000400C
03044100
00000100
00104003
30414103
000C0003
0C300C30
70704007
3C400003
10450100
00400151
01404040
40000140
00041111
00040D40
40000100
44040110
14000110
10040050
000F050C
00000000
C0440000
00000100
00030100
00011101
00000100
00100100
00000100
01410500
3D01C0F7
41013034
01C0CC30
0000C000
00000000
C0C0040C
C4040010
13171400
03044001
0404005D
03C30FC0
0F00CFC0
C30003C1
0C00037C
3F000F00
0CC3C304
000C0F40
0C30CF30
0000C303
CC3CCF30
14134441
14031451
1700C440
13000411
00044F40
00040000
0330300F
00403D03
7C003C00
703C3037
30700003
314C00F0
31003030
410D0003
70300000
05000000
00000013
4500170C
C404030C
0304171D

